// Automatically generated header file
// Date: 2025-12-01 21:59:35.987111
// Quantized model exported from opt_Cosine_lr0.001_Aug_BitMnist_PerTensor_4bitsym_RMS_width32_16_16_bs128_epochs60.pth
// Generated by exportquant.py

#include <stdint.h>

#ifndef BITNETMCU_MODEL_H
#define BITNETMCU_MODEL_H

// Number of layers
#define NUM_LAYERS 4

// Maximum number of activations per layer
#define MAX_N_ACTIVATIONS 32

// Layer: L1
// QuantType: 4bitsym
#define L1_active
#define L1_bitperweight 4
#define L1_incoming_weights 400
#define L1_outgoing_weights 32
const uint32_t L1_weights[] = {
	0x11111088,0x9bcb8112,0x12211121,0x18acffe9,0x13111210,0x113318df,0xffb81321,0x11121122,
	0x1cffff13,0x23110881,0x11241cff,0xf8631100,0x08811123,0x1effd440,0x11008801,0x21132dfd,
	0x966208a9,0xaa012182,0x9bda0458,0x89ba8982,0x21a129a9,0x840c8998,0x199800a0,0x888141bb,
	0x89001101,0x00801023,0x30a98911,0x22110090,0x00881188,0x90080101,0x08810080,0x80989809,
	0x01800081,0x08880088,0x98889801,0x21812821,0x20889899,0x90011188,0x88880000,0x88810002,
	0x01880100,0x10120080,0x00000108,0x00081881,0x12800011,0x00180800,0x10000100,0x00112110,
	0x00880811,0x18180100,0x122110a9,0x81333180,0x01221118,0xacdb0432,0x10991021,0x1208effb,
	0x4639b999,0x0102128a,0xfff1571b,0xda811212,0x200bfff4,0x768fc880,0x2323111a,0xffb477bf,
	0xb0021322,0x1108adc8,0x76bc9012,0x02101080,0x8cb856a8,0x80110088,0x289089b0,0x31988011,
	0x8090000a,0x80901180,0x81098100,0x10880001,0x08000980,0x88001881,0x10088810,0x08a89891,
	0x10808088,0x08188009,0x10800819,0x88888008,0x08001000,0x01888808,0x09000888,0x89811098,
	0x08101098,0x10288880,0x10011088,0x9881808a,0x08901888,0x08818109,0x99808980,0x18088898,
	0x08900110,0x01101100,0x00088001,0x00000022,0x99abaa91,0x12544218,0x9a9ba9aa,0x99012357,
	0x63208999,0xabaa8908,0x00137751,0x088a9aab,0x99a81801,0x5654218b,0xbacba9a8,0x81804677,
	0x5219aaca,0x99b99abb,0x37775538,0xabaaaacb,0xabc90266,0x43319a8a,0xcaa989bc,0xac045431,
	0x99099091,0x088a9a91,0x14219131,0x18010aba,0x90913113,0x02211000,0x88aa8801,0x01138101,
	0x10999100,0x90088182,0x88010188,0x888a9888,0x00008000,0x80108089,0xa8881801,0x80800801,
	0x00908898,0x8080800a,0x01888998,0x88080889,0x908a0000,0x80880889,0x00089990,0x88918888,
	0x8800189a,0x9a991811,0x81188108,0x888aaa99,0x9a880881,0x0899a999,0x20011180,0x88800000,
	0x11210111,0x00800808,0x81101011,0x10208108,0x80880990,0x00012228,0x00981000,0x80098888,
	0x01801801,0x00000008,0x18800101,0x00808800,0x00000888,0x01080808,0x00888880,0x00000912,
	0x22898988,0x88011120,0x18811111,0x20000008,0x88089ac1,0x36553280,0x81888988,0x8bfffd91,
	0x54180800,0x88080aff,0xffffb231,0x00808898,0x089cffff,0xffb99888,0x88082154,0x319daba9,
	0x88888100,0x12334467,0x42100081,0x11181811,0x11018008,0x80080000,0x09809008,0x00000010,
	0x88880898,0x90988808,0x08989981,0x1009a888,0x00100088,0x80011008,0x8889889a,0xa9991001,
	0x00101110,0x80888080,0x01101110,0x18888899,0x88898911,0x211888a9,0x8a98899b,0x9a901089,
	0xaaa80899,0x9909a888,0x1189b99a,0x98910998,0x989818bc,0xaaab99a8,0x99988998,0x08ab8cba,
	0xbaa99988,0xaa8808bb,0xaaabbaba,0xbbaaaaa9,0x18a90809,0x9aaaaaab,0xcca90111,0x22211889,
	0x09999999,0x13652333,0x11011880,0x90003364,0x44241233,0x31431463,0x12445455,0x35543556,
	0x55541012,0x02223444,0x66555744,0x09888001,0x18234432,0x44238a90,0x88880809,0x88121122,
	0x89a88988,0x9ab8bab8,0x9080089a,0xa8aa9909,0xaacbb901,0x110a99ab,0x99899b9a,0xa9011101,
	0x80098898,0x88998001,0x20200000,0x00000000,0x01012218,0x00108808,0x89880811,0x21009a80,
	0x89208908,0x88100080,0x98988008,0x08889811,0x10891900,0x90810889,0x01021800,0x09088808,
	0x09888888,0x11010880,0x88110090,0x08802000,0x10088081,0x08980188,0x11801800,0x88912898,
	0x08881081,0x90000010,0x49018088,0x10088a88,0x09b92900,0x8208188a,0x880189c0,0x21098810,
	0x89a90033,0x09b1218a,0x08999ab8,0x0248aef3,0x30808999,0x1802351c,0xcfc74209,0xaca80233,
	0x661abf95,0x3208acb8,0x03431aff,0xec134208,0xaca92331,0xafffb824,0x54530b90,0x218aefff,
	0xa8014343,0x88000108,0xbefc1211,0x32232210,0x11210118,0x889a89a9,0x81110111,0x009accbc,
	0x98ba8011,0x122008bd,0xffff88aa,0x00111111,0x09bfffca,0xadaa1111,0x213208cf,0xffcaa930,
	0x32001112,0x28efffb8,0x98018882,0x111410ff,0xffc09808,0x00011002,0x33dffe13,0x12232343,
	0x089900df,0xc1433110,0x8246889a,0xa8bc8230,0x10000166,0x00980200,0x13111bb9,0xaa141812,
	0x33190100,0x88980981,0x08100108,0x0099a980,0x18988081,0x88002000,0x08010998,0x00900a02,
	0x11101810,0x8a988889,0x01100109,0x8980aa80,0x89990011,0x02100901,0x99000011,0x09288012,
	0x10289811,0x01100121,0x01102200,0x88111110,0x10880808,0x11110110,0x11188089,0x9aaaaaa8,
	0x88001088,0x99aa9a98,0x99a08881,0x10888888,0x88888100,0x80018089,0x80110011,0x20132332,
	0x88998101,0x23213564,0x474180a0,0x88012145,0x43110800,0x00888999,0x9dcfffff,0xfffb8998,
	0x898aadcf,0xfffffffc,0x88800088,0x1032189a,0xdfdc8801,0x00008100,0x02323388,0x00100088,
	0x00010120,0x11888880,0x89008800,0x11000201,0x00880088,0x00800000,0x22018080,0x81888080,
	0x08109120,0x10088a00,0x20080988,0x82111080,0x88000810,0x18200111,0x10808009,0x08880989,
	0x90011008,0x08008008,0x90089801,0x11000018,0x80010818,0x81100111,0x10121110,0x01101000,
	0x89899998,0x88101110,0x10889880,0x00211122,0x12342100,0x98800112,0x12111332,0x32208801,
	0x21112110,0x12321238,0x00218121,0x08881133,0x11100021,0x0112109a,0x80888008,0x01221002,
	0x20080008,0x11000211,0x88901111,0x121249aa,0x08010190,0x10022242,0x9efdaa91,0x81003202,
	0x220ffffd,0xaa900199,0x12338dff,0xfffc9a8a,0x1112032a,0xdeeeeecc,0x98880801,0x21bbaa80,
	0x11088089,0x89b9acb8,0x08114410,0x909989aa,0xb9910012,0x22208899,0x881889a9,0x00111220,
	0x88080108,0x80898028,0x11088800,0x009980a0,0xa988a808,0x88808008,0x88880989,0x99989998,
	0x8108899a,0xba998888,0x8889999a,0x99008899,0x89808888,0xaa999980,0x89988888,0x8988aadd,
	0xb8ac9080,0x89998889,0xbbedaab8,0x00010099,0x8989da98,0x9a080128,0x80908980,0xaa8ba89b,
	0xb898aa90,0x8999ba9a,0x909a0088,0xa888999a,0x09aba891,0x88980111,0x9800088a,0xa9ddcb80,
	0x01228010,0x0809afff,0xa0211222,0x90180090,0x8b832229,0x80108888,0x08800262,0x2188aa99,
	0x88898001,0x36431100,0x8ab90819,0x19833341,0x18088a9a,0x89100120,0x80322121,0x10198010,
	0x11180111,0x33132228,0x09110000,0x02122234,0x54319008,0x08900021,0x02336430,0x90010001,
	0x11010134,0x44180880,0x23231223,0x32343188,0x01000211,0x1099aaa9,0x90001011,0x1122110a,
	0xbcbca980,0x01122335,0x35309bdd,0xdc901081,0x23223643,0x08accda8,0x08910002,0x34434589,
	0xfea909a9,0x889a9345,0x6429be9a,0x9bdccbbf,0xbd834328,0xada90cdd,0xccbbbcb0,0x2120cc99,
	0x9ab98210,0x09901128,0xaa080012,0x32108980,0x0209a991,0x11219889,0x8b92101a,0x80010128,
	0x8a999982,0x09989800,0x00109909,0x88900891,0x00000808,0x08000188,0x10110100,0x10190111,
	0x10990800,0x11011020,0x82118889,0x89100212,0x00000280,0x88999800,0x00011812,0x10008080,
	0x80980881,0x01112220,0x00011888,0x10111000,0x10898232,0x21010111,0x21102111,0x11111101,
	0x21112111,0x01111211,0x00011111,0x21000012,0x32122221,0x01111000,0x10101222,0x21120211,
	0x20088000,0x00011121,0x11111188,0x88080018,0x88000210,0x19b91188,0x08888080,0x100019ab,
	0x02323643,0x22101899,0x0bdefd82,0x23201219,0x9a990bcf,0xffffd443,0x0809889a,0x108bffff,
	0xff928880,0x08092236,0x20dffffb,0xb888890a,0x00343551,0x9caa8889,0x80088909,0x00124119,
	0x99811109,0x8ab98909,0x88000888,0x009809bc,0x91000008,0x80888988,0x0809a898,0x11098808,
	0x89001110,0x98998911,0x0a9a8811,0x000008a1,0x8989aa98,0x82021110,0x099aaaa8,0x98011012,
	0x21110222,0x23211088,0x11111221,0x11344342,0x89aa9801,0x12120111,0x880008ad,0xca011001,
	0x88888013,0x18aeec82,0x11888089,0x802308bd,0xec802898,0x908a8013,0x189ffb90,0x18801119,
	0x983408ef,0xfa122111,0x31108175,0x9fffd132,0x22221101,0x1151cffc,0x11222110,0x99911038,
	0xdd902201,0x10088991,0x212bda04,0x18081118,0x0000028d,0xc0800000,0x10001100,0x018cb889,
	0x11000081,0x088892ab,0x80800098,0x08808889,0x13109a89,0x88990808,0x99810811,0xa9b8a890,
	0x1089a808,0x080118a8,0x99800888,0x00000010,0x08b9a901,0x10808800,0x08213198,0x80110111,
	0x00000880,0x81881011,0xbaaaaaab,0xbbabaaa9,0xa9aaa9bb,0xaabba888,0x888889aa,0xbabaa998,
	0x01808880,0x0089b9a9,0x90000081,0x00089910,0x9a89b888,0x8800009a,0x98109998,0x88900800,
	0x88988a80,0x99808008,0x08908809,0x89889900,0x88998aa1,0x98080989,0x98808808,0x88899908,
	0xb889aa09,0x88101898,0x908aa988,0xaaaa9a80,0x28189988,0x90009998,0x08088889,0x80890221,
	0x08008180,0x99990880,0x01321231,0x0109a9b0,0x80803432,0x03633220,0x90223346,0x65400465,
	0x54336777,0x75634428,0x03454445,0x55554332,0x20899128,0x10211235,0x4421089a,0xa8898881,
	0x81232110,0xaab9b999,0x899aa999,0xaaabbabb,0x23322200,0x00001022,0x21332221,0x00889b98,
	0x00110122,0x1109abbd,0xcceddb99,0x0022219c,0xffffffff,0xeeedca81,0x28afffff,0xfffffefc,
	0xaa9028af,0xfcefffff,0xecabbba8,0x10988088,0x19b918a9,0xaab91102,0x31155645,0x42320000,
	0x23220322,0x43430100,0x80123122,0x12000900,0x08011133,0x22080891,0x09881810,0x03323211,
	0x2809a988,0x80100112,0x22110108,0x00998111,0x10001180,0x88881018,0x81010881,0x20800011,
	0x08012101,0x20111098,0x08180899,0x01021121,0x20999808,0x88808800,0x82123109,0x80800011,
	0x08898211,0x22101080,0x88899900,0x12313212,0x22344323,0x33343321,0x11113108,0x98244331,
	0x02212131,0x21998825,0x53008802,0x213220cc,0xb8156309,0x89012321,0x28efb834,0x28898081,
	0x211228bd,0xc0441989,0x98021001,0x100a9163,0x889b9810,0x11802199,0xe0731898,0x080028a9,
	0x9999c161,0x19a82300,0x08aaaa10,0xa91189a8,0x03081899,0x1008ab44,0x31100108,0x20001119,
	0xd9433111,0x00082020,0x028ae831,0x8891a000,0x213229bb,0xf9218811,0x80122022,0x9cabc803,
	0x32311002,0x18aabc99,0xb8823223,0x3312189b,0xaa118889,0x11132311,0x218abaaa,0xcaab8012,
	0x00001118,0xab8abcad,0xea8aa902,0x22119aad,0xb99bebcc,0xa8112111,0x00909898,0x89998012,
	0x98988001,0x11181008,0x88889898,0x12111111,0x00108808,0x98881000,0x81080808,0x10980808,
	0x89a98808,0x88011189,0x90080092,0x08181100,0x00888888,0x10000018,0x88808108,0x00880800,
	0x10001889,0x80a08809,0x08002110,0x10080880,0x01100008,0x80801018,0x11a00108,0x88899080,
	0x08099ba8,0x02088a99,0x01111888,0x9ab98002,0x10000000,0x80aca889,0x00802232,0x13089aaa,
	0x010888a1,0x19230308,0xab880818,0x8bd99bff,0xfffeb901,0x01008aef,0xfffffff8,0x91100210,
	0x89adffff,0xf8341188,0x03200011,0x12277640,0x10211080,0x00445643,0x12034232,0x81008824,
	0x45433342,0x21889888,0x21211000,0x88988980,0x00011122,0x000a9980,0x88008800,0x10210080,
	0x88a80888,0x01001112,0x21112088,0x80008088,0x10123202,0x00808100,0x11010083,0x42153310,
	0x08088998,0x8bb01118,0x22101000,0x08119cff,0xfffffdc9,0x80888000,0xbfffffff,0xd8800889,
	0x0011aeff,0xffc14311,0x08111011,0x09a80465,0x20100008,0x10012023,0x56100000,0x08880000,
	0x23454088,0x88098800,0x81804348,0x08008800,0x0a998880,0x11101888,0x00080098,0x88881080,
	0x90808008,0x01108888,0x18909088,0x88108900,0x10811088,0x00080888,0x89088001,0x01008891,
	0x88080000,0x00021108,0x88089080,0x02010100,0x80100022,0x119ba981,0x18000811,0x11321aff,
	0xc2322000,0x10100321,0x8fffc352,0x18801081,0x22248fff,0x14432081,0x88980144,0x9fff6443,
	0x10a81088,0x80341ffa,0x623009ba,0x09808932,0x6df44318,0x9dd90082,0x99126ce3,0x409acbb8,
	0x00081882,0x299218a8,0x98888898,0x00801898,0x09888220,0x89980a01,0x80880009,0x00818808,
	0x10189008,0x88821888,0x00100088,0x18989081,0x09888138,0x08800888,0x90800800,0x10090880,
	0x89880000,0x00800809,0x00880000,0x01880088,0x88981088,0x88908881,0x89008898,0x98888108,
	0x01018811,0x80908188,0x88898998,0x80000088,0x08100800,0x00080080,0x20221200,0x88aa9812,
	0x21121111,0x01089abd,0xca801112,0x12212180,0x88dffda8,0x81122210,0x130244af,0xffdb9112,
	0x23423104,0x421cff89,0x90222343,0x3114443e,0xffdab802,0x33440914,0x451ceffb,0xaa81120d,
	0xfffb240b,0xaeebcca9,0x1afffd02,0x541a0bcb,0xcba90ad8,0x3452309a,0x10b99098,0x89025209,
	0x80909899,0x80102001,0x89caa020,0x99000011,0x10099999,0x00008000,0x1901109a,0x88080801,
	0x10802001,0x21980081,0x08818980,0x08112111,0x11808990,0x80809800,0x2200008a,0x9008a991,
	0x88011110,0x0088889a,0xaa999810,0x22008898,0x98123008,0x80121121,0x11110112,0x33212021,
	0x81018008,0x88908000,0x01111100,0x08898880,0x08880010,0x00808808,0x00808108,0x88881001,
	0x08800980,0x00881210,0x81188088,0x00088800,0x80081088,0x09008180,0x08009080,0x18180080,
	0x88000008,0x00901021,0x00081088,0x80089800,0x11089989,0x98800800,0x20800198,0x9aa01108,
	0x80088108,0x00035422,0x80118080,0x98090888,0x34664888,0x90888088,0x0beffffe,0x82099088,
	0x19108cef,0xffffffd9,0x88008808,0x189fffff,0xfa000008,0x01012114,0x32256411,0x00800800,
	0x02245443,0x20008000,0x88802122,0x23321118,0x08000808,0x01008810,0x88889888,0x88001018,
	0x0aa999a9,0x9aa80801,0x98888989,0x089a8990,0x89009089,0x8999088a,0x9a998888,0x0089aa9a,
	0xa9a08a91,0x80888098,0xaa098010,0x18890008,0x09989889,0xa8988018,0x88208988,0x01888988,
	0xa0121131,0x99088880,0xa99bb230,0x12209090,0x8210898f,0xf1201110,0x90901882,0x011ff320,
	0x20080080,0x088014af,0xf5220209,0x02088808,0x86ffc710,0x02980218,0x018002fe,0x34018980,
	0x00009098,0x0ae84212,0x00808098,0x88899a92,0x31010100,0x01800000,0x01200130,0x11808000,
	0x09102318,0x90201180,0x81080088,0x81099908,0x12800000,0x81101101,0x8b101100,0x08080880,
	0x00018088,0x18880880,0x00012101,0x99808098,0x10008989,0x9b999080,0x11110118,0xabbcdcaa,
	0x99800121,0x0108accb,0xbba88801,0x10101018,0x9a8a9a9a,0x80001228,0x11122122,0x88898890,
	0x80201233,0x45477540,0x32209801,0x11333557,0x77754200,0x08880811,0x10012343,0x21118810,
	0x89aa9bad,0xdee98001,0x0011899b,0x8889abbb,0x90008880,0x08089998,0x8bba8011,0x02a18001,
	0x01098a98,0x98188008,0x08800088,0x88898880,0x80008898,0x89981008,0x80010900,0x00880808,
	0x18800809,0x98818809,0x88100081,0x80a88080,0x88998080,0x00000080,0x00008890,0x189a8889,
	0x80008180,0x08909010,0x11008109,0x88000088,0x8898b99a,0xaaa99880,0xbaba9a99,0x08899888,
	0xaabbbb98,0x91231108,0x120099ab,0xabb92123,0x08aa1208,0x99babb90,0x21119802,0x000888aa,
	0xaaa13331,0xab009888,0x89bbbb02,0x3452da00,0x908099bb,0xb9112356,0xcc00a998,0x9080b810,
	0x3357be20,0xa1121644,0xa9101237,0xaf1a9081,0x2666b808,0x12372eba,0xc8008132,0x98233312,
	0x3ab99888,0x8a89a811,0x121218a9,0xa89ba9a9,0xa0108908,0x01999a8a,0x80999801,0x0000120a,
	0x88998909,0xa8110111,0x0210a999,0x8819b810,0x01000111,0x09988219,0x99100820,0x11211900,
	0x001aa981,0x00001021,0x91080899,0xa9801000,0x80222190,0x88aaab9a,0xa8811010,0x01189a9b,
	0x12211011,0x88809801,0x00111210,0x00800908,0x18908811,0x22088999,0x018981a9,0x89811108,
	0xa8ab9198,0xa8089980,0x11089898,0x98819890,0x88802222,0x8188a808,0x90002080,0x33575322,
	0x11888808,0x1a883456,0x77543080,0x10880008,0x1812809b,0xbba89880,0x0818acff,0xfffff980,
	0x08808081,0xbffffffd,0x22100089,0x9980dfff,0xff233310,0x11010080,0xbffd8421,0x21010080,
	0x10808a13,0x23121108,0x80090001,0x10342421,0x80018008,0x81012242,0x11800118,0x11011111,
	0x32221000,0x01818000,0x18801121,0x08011811,0x1988a800,0x11088008,0x90088889,0x80111100,
	0x00800889,0x80888100,0x33221110,0x08111011,0x23223220,0x09888080,0x09888023,0x32219999,
	0x08981098,0xa8113310,0x888a0810,0x90089180,0x33110900,0x888000a8,0x09812330,0x08109980,
	0x08882890,0x23111810,0x01008081,0x88814211,0x80180000,0x09898988,0x33488281,0x18080899,
	0xaba8321a,0x81808a81,0x01989890,0x30898081,0xab023088,0x88812888,0x81889934,0x20801880,
	0x20825422,0x98541890,0x09812124,0x520bd061,0x9aa89911,0x23440aff,0xb352aa80,0x80121218,
	0xceba0532,0xad918803,0x18acff00,0x9011bfba,0xb90218ad,0xed902112,0xaffdb913,0x218ba828,
	0x12428cfc,0x91222218,0x03321012,0x8aa91112,0x20000101,0x13422211,0x10010011,0x22101111,
	0x11200011,0x01011188,0x10882818,0x00002110,0x00809990,0x08980001,0x00811010,0x80128012,
	0x10810880,0x20108088,0x89102800,0x20880111,0x88101008,0x01801111,0x14318120,0x12000120,
	0x12432222,0x88111223,0x19311246,0x33208133,0x33424420,0x01243210,0x23443564,0x76328aa8,
	0x80801242,0x24233121,0x9bccabcc,0xaaa9abcc,0xbb88adcc,0xeaacabee,0xfffeffb9,0x9bdcebab,
	0x9bfcfefd,0xffba9bdb,0xba099ad9,0xdcccefb9,0x89b98099,0x9989a8a9,0xac901990,0x11aa9a09,
	0x81009881,0x10888801,0xaa081880,0x00001009,0x88898890,0x00100000,0x11112201,0x81008181,
	0x00200212,0x1089889a,0xa9880101,0x10080888,0xbaa88988,0x18821088,0x888a9991,0x89808101,
	0x01888809,0x28998081,0x120100a9,0xb8990898,0xa9811880,0x18abb898,0xa0088018,0x10800188,
	0x80808999,0x00080108,0x13643110,0x29c98008,0x00891252,0x21180fda,0x88810800,0x0010138a,
	0xef0180a9,0x81080800,0x0dfff930,0x08808088,0x8bcdffff,0xa6311088,0x9880acef,0xfff82331,
	0x0899b980,0x9cdffb24,0x13531808,0x90019bca,0x21012243,0x22110112,0x19a82211,0x11133211,
	0x23311080,0x08112242,0x24343312,0x21100118,0x11112332,0x22110111,0x12331101,0x00100101,
	0xa9a99aba,0xa9aa9899,0x8aa9aaaa,0xaa988901,0x91088999,0x99ba9890,0x88188099,0x88899a99,
	0x99908800,0x88880988,0x9988a801,0x10199888,0x888a9898,0x88010808,0x89819009,0x99008012,
	0x0c919898,0x08889802,0x21010980,0x02989898,0x90011a10,0xab909098,0x80888009,0x988bfdcb,
	0xba998189,0x020bcccd,0xcccbba99,0xabb8128b,0xaaddbaba,0xbbceedc8,0x0122220b,0xeebbccef,
	0xca900322,0x24350189,0xba810800,0x13436557,0x77655434,0x33200324,0x43453456,0x76444742,
	0x81321042,0x24223445,0x46429810,0x11103023,0x44456530,0xaa881112,0x08801333,0x33089998,
	0x999a9aa8,0x88008889,0x22344677,0x77664232,0x22231233,0x45444432,0x00011123,0x32323111,
	0x02100008,0x01121200,0x89808108,0x88899921,0x20188880,0x88808989,0x89802108,0x98080898,
	0x18889880,0x11108088,0x09008808,0x89891111,0x18102020,0x18000091,0x20088180,0x18108820,
	0x82021188,0x01011081,0x88981212,0x31288880,0x81900202,0x22333211,0x11000010,0x11121222,
	0x33201101,0x00002001,0x09124212,0x11100022,0x21011090,0x20801200,0x02211118,0xbec019aa,
	0x01908201,0xaaefffda,0x09ccddcb,0xefffffff,0xffa818ad,0xffffffff,0xfffecb90,0x118aceff,
	0xfffffdcb,0x90121210,0x88a99a99,0x88000012,0xcbcccbbb,0xaa9bab9b,0x9acbbbca,0xb9800899,
	0xba9a89ab,0xbca99899,0x889a9aaa,0x889aca99,0x89a90089,0x98998009,0xb9088802,0x32202221,
	0x22109001,0x20133433,0x54331110,0xa0212212,0x43233232,0x80208121,0x22211900,0x188a8800,
	0x8121009a,0xa9800909,0x81009020,0x8b980111,0x81232110,0xa0112232,0x22213533,0x33199002,
	0x21132012,0x22111009,0xa0080108,0x91088999,0x8889b889,0x10008088,0x9889a909,0xb8889008,
	0x11008089,0x801aa080,0x08801011,0x8a888089,0xa9100088,0x08008898,0x000aa811,0x00801121,
	0x8010189b,0xba802021,0x10213200,0x999ccaa8,0x00101011,0x11098acb,0x11120081,0x01000110,
	0x20012000,0x00898880,0x88988010,0x11018099,0x08aa9bca,0xaa801001,0x8a080880,0x8b9bbba8,
	0x2119ca01,0x08880121,0x22110089,0xc8888100,0x54554455,0x1899a888,0x01366566,0x677618a0,
	0xa8008ab8,0xbb998442,0x08800880,0x18adffff,0xfffa0210,0x08101008,0xbbfffffe,0x12321198,
	0x8009923c,0xffff1018,0x88100008,0x88030cfc,0x00890880,0x98011190,0x189a0888,0x80080010,
	0x01180098,0x889a1888,0x00010811,0x22801088,0x90080808,0x01010200,0x00000898,0x18188a80,
	0x12121089,0x08001108,0x11118221,0x01098000,0x80010881,0x11101110,0x08100101,0x21101002,
}; //first channel is topmost bit

// Layer: L2
// QuantType: 4bitsym
#define L2_active
#define L2_bitperweight 4
#define L2_incoming_weights 32
#define L2_outgoing_weights 16
const uint32_t L2_weights[] = {
	0xaa86a800,0x03949230,0x58a06b80,0x8ab9c122,0x00b43218,0x13b309a1,0x8f0921b8,0xc1292938,
	0x208b0a02,0x11899382,0x9098e882,0x0bb20311,0x080c9c81,0x09a9a300,0x8989ea80,0xaa10b638,
	0x280f2a30,0xe98fa320,0x8921c019,0x9ad81180,0xaa088296,0x891a1a38,0xa288023a,0x13139b02,
	0x89168910,0xd98581a0,0x11008a0c,0x99aa0380,0x210c914a,0x800a21b3,0xa831b1bc,0x1093b008,
	0x990048a1,0x80090088,0x53014019,0x384243a1,0x8811028b,0x20021a38,0xe080b200,0x01028b39,
	0x14a2310d,0xb8aa09b2,0xa25c12c0,0x1218198b,0x32a20135,0x89a3a928,0x008a2a33,0x000910a6,
	0x45a98138,0x99891804,0x00611203,0x11020098,0x32009021,0xdd89f338,0x3b9a3121,0xc0bb9280,
	0x9b50008c,0x89483038,0x1294212b,0x1000100c,0x18298099,0x08099a19,0x2e901112,0xf28e383b,
}; //first channel is topmost bit

// Layer: L3
// QuantType: 4bitsym
#define L3_active
#define L3_bitperweight 4
#define L3_incoming_weights 16
#define L3_outgoing_weights 16
const uint32_t L3_weights[] = {
	0x1014f891,0xa2298d9a,0xaa90b382,0xa2a13218,0xa3a43c99,0x08382891,0x4020a928,0x11aa3c29,
	0xba9981ab,0x32128529,0x94ac41ac,0x84911808,0x0a3449a1,0x90088801,0x8010810a,0x309ba82c,
	0x02220803,0x0e8280e9,0x2a809059,0x2a853808,0x21189a90,0x929390b0,0xaa0110b4,0xc8892483,
	0xa0288a94,0x39b93011,0x819b8a41,0x91203b18,0x11914921,0x81c9b125,0x4aaaa238,0x089a8b0a,
}; //first channel is topmost bit

// Layer: L4
// QuantType: 4bitsym
#define L4_active
#define L4_bitperweight 4
#define L4_incoming_weights 16
#define L4_outgoing_weights 10
const uint32_t L4_weights[] = {
	0x9b9a1d2d,0xa9b21a2b,0x12a0bbc1,0xa89332c0,0x99802a83,0xb98a29ab,0x99929a80,0xa1b9a004,
	0x09398189,0xcc0b82a0,0xa8989a8a,0x1328988a,0x9a2bbb19,0x4a8929ad,0x83a821a0,0x9990a991,
	0x38929919,0x9a189a99,0x89a882ac,0x8a8b9830,
}; //first channel is topmost bit

#endif
